<unk>	0
<s>	0
</s>	0
.	-2.77866
s	-3.29172
t	-3.54181
'	-3.73225
▁to	-3.86159
▁I	-3.96048
▁	-3.97717
▁the	-4.01861
▁Tom	-4.10797
▁a	-4.14398
▁that	-4.48624
ed	-4.52866
d	-4.5325
ing	-4.62774
▁you	-4.64145
,	-4.6557
▁in	-4.73284
n	-4.76478
▁is	-4.79563
?	-4.82591
e	-4.85156
▁of	-4.94416
▁and	-5.00268
m	-5.08064
▁was	-5.08672
▁Mary	-5.13142
y	-5.2142
▁do	-5.22749
r	-5.29233
▁be	-5.31925
o	-5.40151
▁for	-5.40659
er	-5.41586
▁he	-5.41803
▁me	-5.42982
re	-5.44383
a	-5.58296
▁The	-5.58477
▁have	-5.63256
▁it	-5.63294
c	-5.65919
▁He	-5.68073
▁his	-5.73606
ll	-5.73885
▁on	-5.73954
p	-5.74368
▁with	-5.76718
le	-5.80246
▁know	-5.80905
ve	-5.80983
or	-5.81545
al	-5.81846
▁are	-5.83191
u	-5.84612
ly	-5.88028
l	-5.89715
i	-5.90158
▁not	-5.99566
g	-5.99831
▁re	-6.00352
▁c	-6.02842
k	-6.0335
▁f	-6.04602
w	-6.05119
▁like	-6.0556
▁don	-6.05934
▁this	-6.06524
▁You	-6.06839
▁said	-6.07729
▁think	-6.07788
▁can	-6.0794
b	-6.08603
ar	-6.08832
ur	-6.08884
▁didn	-6.09943
▁p	-6.10287
▁her	-6.13166
▁has	-6.13532
ri	-6.15626
▁want	-6.16087
▁my	-6.17452
▁she	-6.1805
th	-6.18314
ra	-6.18609
▁We	-6.20824
▁at	-6.20999
▁we	-6.2222
▁go	-6.23151
▁what	-6.28193
es	-6.28249
▁She	-6.29043
▁b	-6.2943
▁Sami	-6.3047
▁de	-6.31281
▁so	-6.31682
ا	-6.36369
▁they	-6.37793
▁A	-6.37916
▁your	-6.3806
ce	-6.38627
se	-6.39079
v	-6.39501
il	-6.40061
▁had	-6.40793
in	-6.41158
▁him	-6.42785
ter	-6.43386
▁about	-6.4416
f	-6.44789
▁will	-6.46585
it	-6.47983
▁as	-6.48203
▁st	-6.48384
en	-6.48705
li	-6.48865
▁were	-6.4997
▁Ziri	-6.50398
▁time	-6.50526
ch	-6.51151
ent	-6.51168
▁need	-6.51552
▁S	-6.5161
h	-6.51709
ي	-6.5202
▁from	-6.52156
▁going	-6.53615
ic	-6.54552
ir	-6.5567
▁up	-6.56165
▁by	-6.56234
an	-6.57071
▁out	-6.57197
te	-6.57732
▁an	-6.58697
▁all	-6.59419
on	-6.59841
ro	-6.62168
▁They	-6.62911
at	-6.63221
▁one	-6.64751
▁told	-6.64777
▁co	-6.64925
-	-6.66182
▁should	-6.66948
▁get	-6.67397
▁It	-6.67845
▁no	-6.68895
ر	-6.69482
▁very	-6.69926
ation	-6.70835
▁did	-6.71178
ng	-6.71543
ت	-6.71579
و	-6.71845
ad	-6.73516
▁What	-6.73942
ne	-6.74991
▁been	-6.75064
ion	-6.7528
▁would	-6.75421
▁but	-6.77911
▁who	-6.78776
▁here	-6.82858
ck	-6.83706
ك	-6.84045
ل	-6.84721
ate	-6.84887
▁ال	-6.85451
est	-6.86526
▁doesn	-6.87306
▁e	-6.87459
▁us	-6.87724
▁con	-6.88028
lo	-6.88446
▁This	-6.88512
▁help	-6.8923
▁isn	-6.90574
▁thought	-6.92737
▁work	-6.93461
ke	-6.94324
▁there	-6.94336
id	-6.9453
as	-6.95235
vi	-6.96448
▁really	-6.96951
la	-6.97944
▁than	-6.99081
▁if	-6.99113
▁su	-6.99263
▁just	-6.99492
▁good	-6.99862
▁Do	-6.9988
د	-6.99959
▁never	-7.00055
▁w	-7.00685
mp	-7.01442
▁ma	-7.02505
▁more	-7.03075
▁B	-7.04316
ع	-7.04318
nd	-7.05755
▁could	-7.05833
ة	-7.06084
▁"	-7.06226
ol	-7.06376
▁ca	-7.06472
▁T	-7.06479
x	-7.0693
▁when	-7.07121
un	-7.07624
▁sh	-7.08329
▁po	-7.08775
▁se	-7.08839
ry	-7.08899
▁see	-7.09582
ه	-7.09815
▁back	-7.10003
ut	-7.10436
!	-7.10541
▁ex	-7.11209
ق	-7.11838
▁got	-7.1227
▁tell	-7.124
س	-7.12661
▁How	-7.13492
▁some	-7.1378
م	-7.1411
el	-7.14288
▁ho	-7.14623
ب	-7.15379
ru	-7.16017
▁Yanni	-7.16808
▁now	-7.16844
ment	-7.17087
▁doing	-7.17327
z	-7.17653
ci	-7.17701
ul	-7.17887
▁day	-7.17969
▁or	-7.18
ive	-7.18425
▁car	-7.19373
ge	-7.19645
ن	-7.1979
▁their	-7.20493
▁P	-7.20683
▁O	-7.20747
ver	-7.20841
▁There	-7.21006
▁home	-7.21279
de	-7.21624
▁un	-7.21962
▁take	-7.22121
age	-7.22149
▁how	-7.22318
▁people	-7.22471
▁say	-7.23033
▁C	-7.24
▁mo	-7.2441
pe	-7.24729
▁That	-7.2482
▁much	-7.24874
▁Rima	-7.25126
ist	-7.25471
▁talk	-7.25792
▁make	-7.26052
▁still	-7.26112
▁bo	-7.26128
co	-7.26392
▁come	-7.26888
▁pro	-7.28035
oo	-7.29694
▁di	-7.29697
▁Boston	-7.29701
▁Layla	-7.30027
▁si	-7.30195
0	-7.30642
▁fa	-7.31135
▁sp	-7.31888
▁any	-7.31957
me	-7.32047
▁into	-7.32433
ies	-7.3387
ف	-7.33998
▁wanted	-7.34078
▁F	-7.35168
▁right	-7.35229
▁E	-7.35783
▁Why	-7.36094
▁only	-7.36161
▁them	-7.36486
▁Algeria	-7.36493
▁live	-7.36535
▁My	-7.36571
▁D	-7.37154
▁ba	-7.37308
▁long	-7.37377
us	-7.37603
is	-7.38937
▁over	-7.39475
▁lo	-7.40062
ح	-7.40788
▁off	-7.41316
▁love	-7.42018
ine	-7.42275
▁won	-7.42391
▁something	-7.43478
om	-7.43599
▁way	-7.43642
ity	-7.44628
▁other	-7.45032
ers	-7.46504
▁wasn	-7.46897
▁eat	-7.4699
▁house	-7.48468
▁G	-7.48848
▁man	-7.49005
he	-7.49096
▁lot	-7.49394
▁sa	-7.49404
ig	-7.49733
▁went	-7.50121
▁our	-7.50578
lu	-7.50871
▁today	-7.51778
mo	-7.51884
▁look	-7.52235
▁last	-7.52371
▁new	-7.52695
ho	-7.52936
▁French	-7.53493
▁knew	-7.53913
ight	-7.5394
▁too	-7.54112
▁mi	-7.54156
▁speak	-7.54196
▁gr	-7.54379
▁always	-7.54682
▁play	-7.54845
ha	-7.55044
qu	-7.5508
ay	-7.55293
sh	-7.55741
ant	-7.55913
▁ي	-7.56344
▁la	-7.56468
▁dis	-7.56495
▁anything	-7.56509
pp	-7.57432
▁ro	-7.5752
able	-7.57677
op	-7.59027
ated	-7.60218
▁Australia	-7.60289
▁made	-7.61519
▁stay	-7.6153
ure	-7.61741
na	-7.61761
ance	-7.62031
im	-7.62146
▁li	-7.62175
▁Don	-7.62197
▁many	-7.62355
ish	-7.62618
▁plan	-7.62775
▁seem	-7.62988
ج	-7.63192
▁Did	-7.63438
▁money	-7.6374
▁school	-7.63869
▁asked	-7.64103
▁W	-7.6446
▁life	-7.6465
▁down	-7.65188
▁again	-7.652
▁even	-7.66561
▁o	-7.66938
▁r	-7.66942
▁three	-7.66943
ian	-7.67378
▁أ	-7.67579
▁If	-7.67673
▁left	-7.6778
▁feel	-7.68165
▁book	-7.68458
ow	-7.68461
▁before	-7.68714
1	-7.68759
ff	-7.69497
mi	-7.69791
and	-7.70279
"	-7.70348
▁ha	-7.70556
▁done	-7.71071
▁j	-7.71159
▁No	-7.71672
▁better	-7.7217
ence	-7.72204
▁sure	-7.72673
▁da	-7.72914
▁win	-7.72922
ous	-7.73746
▁why	-7.74064
um	-7.74235
▁where	-7.7424
▁find	-7.74557
▁Are	-7.74688
▁well	-7.75694
."	-7.7591
no	-7.76222
▁room	-7.76231
▁give	-7.76247
tic	-7.76407
▁ta	-7.76439
▁old	-7.77299
▁able	-7.7769
▁John	-7.78525
▁ل	-7.78634
▁Can	-7.78956
▁first	-7.79377
▁does	-7.79503
▁away	-7.79951
▁wait	-7.79987
ud	-7.80351
▁hand	-7.80397
▁buy	-7.80879
▁N	-7.81206
hi	-7.82048
▁leave	-7.82202
▁might	-7.82944
ac	-7.83216
▁When	-7.8394
bo	-7.84388
▁came	-7.84436
ick	-7.84438
am	-7.84726
▁hope	-7.85008
▁let	-7.853
ma	-7.85495
▁hi	-7.85876
▁Let	-7.85995
▁night	-7.86108
▁walk	-7.86127
▁little	-7.86163
ia	-7.86715
ach	-7.86914
▁ever	-7.8719
▁م	-7.87587
▁years	-7.87717
▁put	-7.88045
ّ	-7.88048
ally	-7.8809
▁used	-7.88422
▁learn	-7.88858
fe	-7.88952
’	-7.88985
▁himself	-7.8996
▁next	-7.90188
cu	-7.90722
▁cha	-7.90874
▁everything	-7.90917
ie	-7.91291
▁every	-7.91323
▁ت	-7.91459
bi	-7.91838
ni	-7.91904
▁two	-7.92011
▁read	-7.9218
ful	-7.92427
▁saw	-7.92465
▁ب	-7.92629
▁hard	-7.92658
▁found	-7.93538
▁took	-7.93714
led	-7.93752
wa	-7.9377
▁after	-7.94125
ag	-7.94675
▁believe	-7.9487
▁says	-7.95188
▁things	-7.95196
▁tea	-7.95378
▁wouldn	-7.95679
ther	-7.96397
▁gu	-7.96401
▁hear	-7.96923
▁tomorrow	-7.97183
ش	-7.97204
ph	-7.97207
fi	-7.9776
▁already	-7.97962
▁must	-7.98132
ak	-7.98199
▁K	-8.00093
▁couldn	-8.00098
▁wonder	-8.00107
▁dog	-8.00409
▁pre	-8.0054
iv	-8.00902
▁problem	-8.01854
▁late	-8.01952
row	-8.01954
less	-8.02097
▁person	-8.02408
▁happen	-8.02995
light	-8.03487
che	-8.03718
und	-8.03845
▁week	-8.04072
po	-8.04142
▁ask	-8.04829
ab	-8.04932
▁star	-8.05133
ard	-8.057
▁job	-8.06079
▁show	-8.06151
ط	-8.06509
▁started	-8.07
▁around	-8.07757
j	-8.07827
ca	-8.07847
▁per	-8.08007
▁own	-8.08412
for	-8.08886
▁turn	-8.09536
▁name	-8.09649
▁because	-8.09846
ain	-8.10503
▁language	-8.10597
▁understand	-8.10743
ugh	-8.10865
if	-8.10985
ction	-8.11231
▁world	-8.11256
▁probably	-8.11674
▁meet	-8.11845
▁comm	-8.1191
▁Please	-8.12093
▁children	-8.12219
▁app	-8.12357
ber	-8.12392
▁without	-8.12468
ical	-8.1271
▁change	-8.1361
▁Skura	-8.13686
ap	-8.14375
ise	-8.14412
ack	-8.14535
port	-8.14821
▁call	-8.15467
▁water	-8.15661
▁heard	-8.15737
أ	-8.15739
▁door	-8.1594
use	-8.16386
▁same	-8.16456
▁ga	-8.16605
par	-8.1679
▁year	-8.17123
▁Have	-8.17129
▁place	-8.17187
▁friends	-8.17224
▁watch	-8.17628
لا	-8.17649
▁tried	-8.17675
▁gave	-8.18252
▁open	-8.1829
ious	-8.18457
▁often	-8.18511
ec	-8.18689
▁may	-8.18737
▁va	-8.18801
▁both	-8.18869
▁father	-8.19322
▁drink	-8.19352
Y	-8.19511
▁yet	-8.19573
▁en	-8.19875
▁thing	-8.20296
gg	-8.20531
▁Where	-8.20891
▁soon	-8.21023
ذ	-8.2112
▁Who	-8.21775
▁sleep	-8.21948
▁happened	-8.22402
ص	-8.22728
▁most	-8.22995
▁use	-8.23167
▁care	-8.23594
ما	-8.2367
man	-8.23741
▁keep	-8.23958
▁part	-8.23969
bu	-8.24681
▁enough	-8.24712
▁through	-8.24768
▁wish	-8.24983
cent	-8.25086
▁happy	-8.25091
▁friend	-8.25811
3	-8.2591
gu	-8.26274
▁An	-8.26306
▁which	-8.26408
land	-8.26548
ward	-8.26905
خ	-8.26979
▁looked	-8.27161
▁best	-8.27552
ary	-8.27578
▁together	-8.27975
ever	-8.28101
▁kind	-8.28176
gen	-8.28404
▁word	-8.28435
▁idea	-8.28954
▁من	-8.2899
▁Mar	-8.29023
V	-8.30301
▁please	-8.30717
▁Some	-8.31069
▁أن	-8.31303
▁nothing	-8.31534
▁anymore	-8.31569
▁study	-8.31826
▁close	-8.32083
▁great	-8.32143
up	-8.32233
▁under	-8.32804
▁question	-8.32974
▁ten	-8.33123
؟	-8.3334
▁morning	-8.33447
▁Mo	-8.33669
▁Mennad	-8.33937
▁end	-8.34
2	-8.3429
ition	-8.34306
▁Ma	-8.34848
▁mother	-8.35533
▁looking	-8.35544
▁bad	-8.3559
gra	-8.35624
▁mean	-8.36228
ize	-8.36366
ان	-8.36374
▁yesterday	-8.36537
▁pass	-8.36607
▁His	-8.36665
▁fun	-8.3725
▁high	-8.37408
▁U	-8.37526
▁big	-8.3768
▁Berber	-8.37999
ub	-8.38002
ض	-8.38062
one	-8.38581
▁bought	-8.38804
;	-8.38882
▁party	-8.38933
▁في	-8.39055
▁move	-8.39122
▁teacher	-8.39223
▁stop	-8.39298
▁wrong	-8.39531
▁each	-8.40031
▁anyone	-8.4024
ار	-8.40692
▁visit	-8.4074
▁while	-8.40938
:	-8.41218
▁war	-8.4141
▁few	-8.41609
▁girl	-8.41681
▁try	-8.41973
▁until	-8.41981
▁seen	-8.42482
▁alone	-8.42485
▁called	-8.42549
▁another	-8.42551
▁expect	-8.42867
▁head	-8.4371
▁else	-8.43964
I	-8.43975
▁sing	-8.44292
▁far	-8.44672
▁enjoy	-8.44921
5	-8.45024
▁English	-8.45195
▁remember	-8.4535
ness	-8.45449
▁mind	-8.45569
▁those	-8.45627
qui	-8.45681
lar	-8.45754
▁kill	-8.46251
▁food	-8.46886
▁bit	-8.47185
8	-8.47193
▁drive	-8.47625
▁parents	-8.47915
▁afraid	-8.48021
▁trying	-8.48088
▁family	-8.48092
ال	-8.48156
▁finish	-8.48287
▁ear	-8.4874
▁felt	-8.49061
▁class	-8.49466
ative	-8.49593
▁Be	-8.50487
▁country	-8.50728
▁getting	-8.50778
▁herself	-8.50928
▁lost	-8.51122
▁tri	-8.51533
▁Ha	-8.51751
▁month	-8.52273
▁pretty	-8.52581
▁phone	-8.52768
J	-8.53113
▁Co	-8.53216
ز	-8.5396
▁run	-8.54399
▁rain	-8.54426
6	-8.54506
▁someone	-8.54816
▁الم	-8.54828
▁answer	-8.55093
▁supposed	-8.56027
▁such	-8.56678
4	-8.56681
▁fire	-8.56975
▁pain	-8.57302
time	-8.57602
▁kid	-8.58319
▁beautiful	-8.58432
غ	-8.58629
▁ready	-8.58732
▁pay	-8.5944
▁decided	-8.59518
▁20	-8.59718
▁Ro	-8.59757
▁everyone	-8.60304
▁coming	-8.60446
▁planning	-8.6116
▁trans	-8.61441
▁face	-8.61704
▁ran	-8.62357
▁swim	-8.62785
▁Li	-8.62862
▁having	-8.62995
▁ti	-8.63003
▁sea	-8.63242
▁imp	-8.63457
H	-8.63725
▁surprise	-8.64023
▁train	-8.64482
▁police	-8.64628
▁act	-8.64919
▁brother	-8.6492
▁married	-8.65087
9	-8.65443
إ	-8.65909
▁almost	-8.66184
S	-8.66213
▁whether	-8.66311
press	-8.66312
▁Lo	-8.6652
▁early	-8.66568
▁student	-8.66674
▁busy	-8.66973
▁difficult	-8.67766
▁since	-8.67881
▁stand	-8.68382
▁tree	-8.6867
▁different	-8.69242
▁promise	-8.69249
▁du	-8.69497
▁bus	-8.69669
▁Monday	-8.70077
7	-8.70165
لم	-8.70179
لي	-8.7018
▁small	-8.70409
▁Th	-8.70718
▁become	-8.70742
▁myself	-8.70763
نا	-8.70797
▁guy	-8.70877
▁living	-8.71035
▁office	-8.71269
ين	-8.71523
▁cold	-8.71603
▁Does	-8.71854
▁also	-8.72497
▁Le	-8.73221
▁yourself	-8.73372
▁reason	-8.73855
▁agree	-8.73943
▁Re	-8.7415
▁Could	-8.74566
▁Ja	-8.75072
▁quite	-8.75263
▁mistake	-8.75422
R	-8.757
▁free	-8.75721
▁truth	-8.75795
▁listen	-8.76006
ث	-8.76568
▁important	-8.76662
▁picture	-8.76733
يد	-8.76859
▁miss	-8.77132
▁near	-8.77167
▁chance	-8.77171
▁tired	-8.77199
▁broke	-8.77397
▁child	-8.77415
▁minute	-8.77466
▁ago	-8.77727
▁park	-8.78582
▁mu	-8.79468
▁Will	-8.79497
▁eng	-8.79768
▁woman	-8.79774
line	-8.7982
▁Ju	-8.79853
▁movie	-8.80665
▁window	-8.80799
▁wife	-8.808
▁cook	-8.80836
▁Would	-8.81068
▁matter	-8.81495
▁arrive	-8.81588
▁city	-8.8167
▁sound	-8.81699
▁ski	-8.81793
▁write	-8.81877
▁dress	-8.82333
▁music	-8.82761
▁nice	-8.84262
▁large	-8.84583
▁scar	-8.84904
▁sentence	-8.85626
▁hurt	-8.85808
▁America	-8.85858
▁clean	-8.85969
▁follow	-8.86065
▁letter	-8.86396
L	-8.86495
▁true	-8.86535
▁هل	-8.86867
▁fast	-8.87036
▁hair	-8.87162
▁coffee	-8.87236
▁full	-8.87729
▁between	-8.87735
▁doctor	-8.87789
ship	-8.87867
▁number	-8.89166
▁sister	-8.89362
▁order	-8.89636
▁كان	-8.89732
▁themselves	-8.89782
▁game	-8.90277
▁careful	-8.90448
▁table	-8.90797
▁spend	-8.90955
▁easy	-8.9133
▁usually	-8.91681
M	-8.91745
▁against	-8.91953
▁quickly	-8.91981
T	-8.92266
▁fell	-8.92269
▁four	-8.92577
ى	-8.92642
A	-8.92845
▁behind	-8.93004
▁clear	-8.93264
▁count	-8.93273
▁hate	-8.93331
▁became	-8.93336
▁complete	-8.9409
▁La	-8.94092
▁dinner	-8.94822
▁grow	-8.95059
▁laugh	-8.95202
▁kiss	-8.95673
▁making	-8.96261
▁outside	-8.96907
▁forgot	-8.97079
▁exam	-8.97271
▁forget	-8.9803
▁realize	-8.98067
▁سامي	-8.98182
ء	-8.9868
▁trouble	-8.9868
▁dream	-8.99891
▁human	-8.9992
▁safe	-9.01587
▁glad	-9.01837
▁على	-9.01871
▁story	-9.0217
▁travel	-9.02266
▁health	-9.02321
▁tonight	-9.02466
▁return	-9.02816
▁possible	-9.03706
▁weather	-9.03739
▁consider	-9.03923
▁front	-9.03924
ja	-9.04333
▁accident	-9.04512
ible	-9.05209
▁gl	-9.05291
▁sorry	-9.05458
▁Tell	-9.06069
▁Mi	-9.06176
▁summer	-9.06302
▁cannot	-9.06392
▁short	-9.06465
▁company	-9.06906
▁German	-9.06906
▁trust	-9.07225
▁sign	-9.07403
▁God	-9.07408
▁point	-9.08358
▁afternoon	-9.08512
▁business	-9.08967
▁anybody	-9.09032
▁key	-9.09315
ئ	-9.09423
▁Everyone	-9.09587
َ	-9.09652
▁strong	-9.1018
▁computer	-9.10905
▁taking	-9.11181
▁street	-9.11205
▁lunch	-9.11437
▁angry	-9.11554
▁daughter	-9.11671
▁Me	-9.12115
▁Islam	-9.12212
▁serious	-9.12614
▁kept	-9.13801
▁glass	-9.1401
▁black	-9.14076
▁bring	-9.14231
▁hospital	-9.14622
▁notice	-9.14726
▁certain	-9.14967
▁19	-9.15592
▁dark	-9.15771
▁began	-9.15816
▁store	-9.16077
▁past	-9.17132
▁check	-9.17246
▁Maybe	-9.17451
▁explain	-9.17451
ً	-9.1809
▁snow	-9.18451
▁exactly	-9.18698
▁actually	-9.18734
▁break	-9.1924
▁Algiers	-9.19273
▁Ho	-9.19979
▁spoke	-9.20037
▁slow	-9.20072
▁present	-9.20199
،	-9.20252
▁born	-9.20415
▁brought	-9.20507
▁second	-9.20654
▁strange	-9.21058
▁sitting	-9.21209
▁rich	-9.21605
▁عن	-9.21883
▁power	-9.22108
▁restaurant	-9.22424
▁doubt	-9.22425
▁during	-9.2311
▁wall	-9.23253
▁fact	-9.24286
K	-9.24616
▁half	-9.25373
▁baby	-9.25651
▁along	-9.2593
▁allowed	-9.26264
▁favorite	-9.2676
▁flower	-9.27267
▁Many	-9.27357
N	-9.2773
▁experience	-9.27894
▁secret	-9.28013
/	-9.28446
▁animal	-9.28647
elect	-9.28745
▁stopped	-9.28972
▁thirty	-9.29041
▁clothes	-9.2924
▁least	-9.30122
▁women	-9.30686
▁rather	-9.30781
▁situation	-9.30806
▁suggest	-9.31538
▁Thank	-9.3162
▁convince	-9.32028
▁fix	-9.32163
▁begin	-9.32271
—	-9.32562
▁People	-9.32603
▁hold	-9.32671
▁body	-9.33146
▁continue	-9.33348
▁paid	-9.33607
D	-9.33777
▁suspect	-9.33847
▁garden	-9.33889
▁Nobody	-9.34014
▁several	-9.34899
▁direct	-9.34995
▁video	-9.35446
▁weekend	-9.35497
▁Japanese	-9.36471
▁2:30	-9.36812
▁caught	-9.36907
▁إلى	-9.37199
▁figure	-9.38068
▁After	-9.38159
▁finally	-9.38767
▁shopping	-9.39248
▁wrote	-9.39295
▁shoes	-9.39745
▁neighbor	-9.39911
▁stupid	-9.39912
▁Muslim	-9.40177
▁worried	-9.40489
▁future	-9.41611
▁Fadil	-9.41702
▁space	-9.41714
▁treat	-9.41838
▁support	-9.41973
▁floor	-9.42162
▁across	-9.42334
O	-9.42425
▁voice	-9.42516
▁white	-9.42517
▁decision	-9.42607
▁Mr	-9.42898
▁impress	-9.43205
▁appear	-9.43208
▁everybody	-9.43339
ُ	-9.4343
W	-9.46971
ظ	-9.573
ِ	-9.57988
Q	-9.61667
C	-9.61876
“	-9.63447
”	-9.63671
Z	-9.83576
B	-9.8504
)	-9.87067
(	-9.87923
P	-9.91111
آ	-9.96679
E	-10.0008
F	-10.2996
$	-10.3262
é	-10.3466
%	-10.4091
ْ	-10.4915
G	-10.5612
–	-10.6394
ؤ	-10.7241
q	-10.8157
U	-10.8899
X	-10.9707
ٍ	-11.7289
á	-12.0052
ٌ	-12.0113
‘	-12.1196
í	-12.1539
ü	-12.5404
+	-12.5716
°	-12.6149
ã	-12.7074
&	-12.7445
è	-12.7571
ā	-12.7829
ی	-12.7829
ó	-12.8646
ö	-12.9692
ï	-13.0684
ç	-13.1786
[	-13.2595
]	-13.2595
à	-13.3247
ō	-13.3247
ñ	-13.3707
ä	-13.3707
*	-13.4189
ـ	-13.4439
€	-13.4439
#	-13.5507
ı	-13.639
=	-13.7025
_	-13.7025
ə	-13.7703
â	-13.806
­	-13.843
ú	-13.8815
ë	-13.9632
؛	-13.9632
١	-13.9632
٩	-14.0066
@	-14.0521
‬	-14.0997
ê	-14.1497
>	-14.2023
ô	-14.2023
ł	-14.2023
î	-14.2579
о	-14.2579
É	-14.3167
ß	-14.3792
ṛ	-14.3792
ک	-14.3792
č	-14.4459
ū	-14.5173
а	-14.5173
ī	-14.5173
‮	-14.5942
š	-14.5942
ş	-14.5943
ǎ	-14.6776
л	-14.6776
»	-14.6776
ŭ	-14.6776
٠	-14.6776
т	-14.6776
å	-14.7685
с	-14.7685
ḍ	-14.8685
π	-14.8685
<	-14.9796
ń	-14.9796
٥	-14.9796
æ	-15.1046
ɣ	-15.1046
я	-15.1046
٣	-15.1046
٦	-15.1046
′	-15.1046
‐	-15.1046
р	-15.1046
ø	-15.2475
ĝ	-15.2475
ẓ	-15.2475
の	-15.4141
ò	-15.4141
ま	-15.4141
×	-15.4141
ì	-15.4141
٤	-15.4141
か	-15.4141
٨	-15.4141
۰	-15.4141
û	-15.4141
ٰ	-15.4141
н	-15.4141
Ú	-15.6141
ē	-15.6141
ș	-15.6141
ṭ	-15.6141
^	-15.6141
ĉ	-15.6141
ź	-15.6141
ę	-15.6141
е	-15.6141
‍	-15.6141
θ	-15.8641
ν	-15.8641
٧	-15.8641
た	-15.8641
·	-15.8641
ć	-15.8641
ě	-15.8641
ŝ	-15.8641
ż	-15.8641
ʼ	-15.8641
κ	-15.8641
з	-15.8641
ṣ	-15.8641
‒	-15.8641
す	-15.8641
ĵ	-15.8641
→	-15.8641
б	-15.8641
、	-15.8641
پ	-16.1975
`	-16.1975
ǧ	-16.1975
ɛ	-16.1975
ʽ	-16.1975
й	-16.1975
ь	-16.1975
ל	-16.1975
ۆ	-16.1975
۔	-16.1975
እ	-16.1975
₤	-16.1975
□	-16.1975
―	-16.1975
ע	-16.1975
۹	-16.1975
в	-16.1975
ٓ	-16.1975
「	-16.6974
」	-16.6974
±	-16.6974
α	-16.6974
ε	-16.6975
}	-16.6975
~	-16.6975
À	-16.6975
Ö	-16.6975
ð	-16.6975
ù	-16.6975
ĥ	-16.6975
ő	-16.6975
ŕ	-16.6975
ř	-16.6975
ś	-16.6975
Σ	-16.6975
Ω	-16.6975
τ	-16.6975
Я	-16.6975
и	-16.6975
м	-16.6975
у	-16.6975
ч	-16.6975
ы	-16.6975
ё	-16.6975
ַ	-16.6975
ׁ	-16.6975
ה	-16.6975
٪	-16.6975
ڨ	-16.6975
ڵ	-16.6975
ێ	-16.6975
ṅ	-16.6975
‽	-16.6975
₪	-16.6975
☭	-16.6975
♗	-16.6975
➜	-16.6975
あ	-16.6975
所	-16.6975
ש	-16.6975
🤧	-16.6975
п	-16.6975
言	-17.6929
何	-17.693
を	-17.6931
る	-17.6932
み	-17.6933
て	-17.6934
っ	-17.6935
い	-17.6936
گ	-17.6937
מ	-17.6938
א	-17.6939
ю	-17.694
д	-17.6941
М	-17.6942
ρ	-17.6943
̱	-17.6944
Ō	-17.6945
Ł	-17.6946
İ	-17.6947
đ	-17.6948
ă	-17.6949
Í	-17.695
Å	-17.6951
{	-17.6952
₹	-17.6953
‫	-17.6954
к	-17.6955
Ţ	-17.6956
œ	-17.6957
♘	-17.6958
¡	-17.6959
😂	-17.696
√	-17.6961
چ	-17.6962
Ø	-17.6963
ž	-17.6964
ğ	-17.6965
Ü	-17.6966
Á	-17.6967
¥	-17.6968
٢	-17.6969
«	-17.697
−	-17.6971
£	-17.6972
⁄	-17.6973
ٱ	-17.6974
۲	-17.6974
ἄ	-17.6974
問	-17.6974
顧	-17.6974
Č	-17.6974
Ɛ	-17.6974
Н	-17.6974
₩	-17.6974
₫	-17.6974
₳	-17.6974
₵	-17.6974
什	-17.6974
甚	-17.6974
허	-17.6974
|	-17.6975
¢	-17.6975
Æ	-17.6975
Ç	-17.6975
Î	-17.6975
Ó	-17.6975
Þ	-17.6975
õ	-17.6975
ý	-17.6975
Ĉ	-17.6975
ď	-17.6975
ĺ	-17.6975
ľ	-17.6975
ņ	-17.6975
ň	-17.6975
ŏ	-17.6975
ť	-17.6975
Ż	-17.6975
Ɣ	-17.6975
ǔ	-17.6975
ǭ	-17.6975
ʈ	-17.6975
ʻ	-17.6975
ˈ	-17.6975
̍	-17.6975
Β	-17.6975
Δ	-17.6975
ά	-17.6975
β	-17.6975
γ	-17.6975
ζ	-17.6975
ι	-17.6975
μ	-17.6975
ξ	-17.6975
ο	-17.6975
ς	-17.6975
ό	-17.6975
г	-17.6975
э	-17.6975
є	-17.6975
ї	-17.6975
ѝ	-17.6975
ׂ	-17.6975
ח	-17.6975
י	-17.6975
ן	-17.6975
ץ	-17.6975
ڕ	-17.6975
ژ	-17.6975
ھ	-17.6975
۱	-17.6975
ी	-17.6975
ል	-17.6975
ሕ	-17.6975
መ	-17.6975
ም	-17.6975
ሳ	-17.6975
ሽ	-17.6975
ብ	-17.6975
ት	-17.6975
አ	-17.6975
ካ	-17.6975
ዓ	-17.6975
ዬ	-17.6975
ግ	-17.6975
ጽ	-17.6975
።	-17.6975
ṇ	-17.6975
Ṛ	-17.6975
Ṭ	-17.6975
ạ	-17.6975
ấ	-17.6975
ầ	-17.6975
ẩ	-17.6975
ắ	-17.6975
ẽ	-17.6975
ề	-17.6975
ồ	-17.6975
ứ	-17.6975
ự	-17.6975
ἀ	-17.6975
ᾰ	-17.6975
₣	-17.6975
₰	-17.6975
₴	-17.6975
⊂	-17.6975
☉	-17.6975
⨯	-17.6975
ⵥ	-17.6975
々	-17.6975
き	-17.6975
こ	-17.6975
し	-17.6975
せ	-17.6975
と	-17.6975
む	-17.6975
ら	-17.6975
り	-17.6975
ろ	-17.6975
ん	-17.6975
ウ	-17.6975
ザ	-17.6975
ス	-17.6975
ド	-17.6975
ム	-17.6975
レ	-17.6975
・	-17.6975
三	-17.6975
不	-17.6975
么	-17.6975
亡	-17.6975
便	-17.6975
傳	-17.6975
典	-17.6975
分	-17.6975
務	-17.6975
國	-17.6975
够	-17.6975
夢	-17.6975
念	-17.6975
政	-17.6975
明	-17.6975
樓	-17.6975
水	-17.6975
海	-17.6975
滸	-17.6975
演	-17.6975
紅	-17.6975
義	-17.6975
般	-17.6975
若	-17.6975
西	-17.6975
記	-17.6975
詞	-17.6975
遊	-17.6975
音	-17.6975
香	-17.6975
鳥	-17.6975
鸭	-17.6975
麼	-17.6975
신	-17.6975
～	-17.6975
🌡	-17.6975
🏼	-17.6975
😊	-17.6975
😷	-17.6975
🙂	-17.6975
🤒	-17.6975
🤮	-17.6975
🦠	-17.6975
Ñ	-17.6975
ơ	-17.6975
ư	-17.6975
ǐ	-17.6975
Ч	-17.6975
Ṣ	-17.6975
ữ	-17.6975
焼	-17.6975
ǃ	-17.6975
פ	-17.6975
न	-17.6975
प	-17.6975
ल	-17.6975
ा	-17.6975
े	-17.6975
ḥ	-17.6975
エ	-17.6975
ト	-17.6975
ー	-17.6975
港	-17.6975
粵	-17.6975
語	-17.6975
