<unk>	0
<s>	0
</s>	0
.	-2.77773
s	-3.30179
t	-3.53843
'	-3.72481
▁to	-3.85624
▁I	-3.95568
▁the	-4.01087
▁	-4.04162
▁Tom	-4.09884
▁a	-4.14295
▁that	-4.4778
d	-4.52298
ed	-4.52468
ing	-4.63865
,	-4.65238
▁you	-4.66811
▁in	-4.72292
n	-4.79061
▁is	-4.79072
e	-4.81628
?	-4.82073
▁of	-4.93532
m	-4.97181
▁and	-4.99355
▁was	-5.07787
▁Mary	-5.12234
y	-5.14677
▁do	-5.22056
o	-5.30294
▁be	-5.30928
r	-5.31098
er	-5.39811
▁for	-5.40744
▁he	-5.4091
▁me	-5.42365
re	-5.44309
a	-5.46881
▁The	-5.57532
▁it	-5.62355
▁have	-5.62387
c	-5.62762
▁He	-5.67416
▁his	-5.72692
▁on	-5.7298
ll	-5.74907
▁with	-5.75808
▁know	-5.79995
ve	-5.80406
le	-5.80771
al	-5.80806
or	-5.81139
▁are	-5.82273
u	-5.84749
l	-5.88165
ly	-5.90644
▁c	-5.91975
i	-5.92881
g	-5.98417
▁not	-5.99993
▁re	-6.00219
p	-6.00261
th	-6.02894
k	-6.03932
▁like	-6.04649
▁don	-6.04939
▁this	-6.05614
▁You	-6.05929
ri	-6.0629
▁said	-6.06814
▁think	-6.06878
▁can	-6.0722
▁p	-6.07599
w	-6.07751
ur	-6.07824
ar	-6.08363
b	-6.08881
▁didn	-6.09019
▁her	-6.1217
▁has	-6.12614
▁want	-6.16213
▁my	-6.16545
▁she	-6.17148
ra	-6.18514
es	-6.1963
▁at	-6.1971
▁We	-6.19926
▁we	-6.21058
ا	-6.23749
▁f	-6.24126
▁go	-6.24793
▁what	-6.27283
f	-6.28108
▁She	-6.28131
▁Sami	-6.2956
▁de	-6.30427
▁so	-6.30759
▁b	-6.35082
▁A	-6.37077
▁they	-6.37259
il	-6.37804
▁your	-6.37838
en	-6.37895
in	-6.39113
v	-6.39531
▁had	-6.39886
ce	-6.40387
▁him	-6.41892
se	-6.42107
▁about	-6.4325
ter	-6.43361
it	-6.43806
▁will	-6.45675
h	-6.47096
▁out	-6.4758
▁st	-6.48979
▁were	-6.49063
▁Ziri	-6.49488
▁time	-6.49594
ch	-6.50421
▁from	-6.51245
▁as	-6.51282
ent	-6.52124
▁need	-6.52321
▁going	-6.52783
li	-6.53565
ir	-6.54072
ic	-6.54728
▁by	-6.5533
on	-6.55917
▁up	-6.56337
▁S	-6.56902
▁an	-6.57019
▁all	-6.58437
ي	-6.59664
an	-6.60061
te	-6.60702
▁They	-6.62105
at	-6.63159
▁told	-6.63867
▁one	-6.63925
▁co	-6.64225
-	-6.65272
▁should	-6.66038
▁It	-6.66901
▁get	-6.67001
▁no	-6.6787
▁very	-6.69016
ation	-6.69933
▁did	-6.70292
▁been	-6.74229
▁would	-6.74536
ne	-6.74629
ad	-6.74724
ل	-6.75155
▁What	-6.7572
ro	-6.75742
ion	-6.76392
ر	-6.76541
▁but	-6.76996
▁who	-6.77861
ت	-6.79332
▁here	-6.81998
▁ال	-6.83657
ck	-6.85554
as	-6.85749
ate	-6.86071
و	-6.86079
▁doesn	-6.86386
▁us	-6.86573
▁e	-6.86971
▁con	-6.871
est	-6.87528
▁help	-6.88319
▁isn	-6.8943
▁This	-6.90889
▁thought	-6.91828
▁work	-6.92551
▁there	-6.93425
lo	-6.94194
ng	-6.95269
د	-6.95749
▁really	-6.96041
ke	-6.96693
▁su	-6.97706
▁than	-6.98171
▁just	-6.98582
▁C	-6.9877
▁if	-6.98845
▁good	-6.98953
▁Do	-6.9906
▁never	-6.99145
▁ma	-7.0178
ol	-7.01843
ع	-7.01891
▁more	-7.02166
م	-7.0328
nd	-7.04706
▁could	-7.04948
▁"	-7.05253
ك	-7.05323
▁T	-7.05465
un	-7.05747
x	-7.06648
el	-7.07447
ة	-7.0755
▁se	-7.07575
ه	-7.07603
ut	-7.07841
▁when	-7.08524
▁see	-7.08689
ry	-7.0869
▁sh	-7.08758
▁B	-7.09843
▁ex	-7.10287
ن	-7.10372
▁po	-7.10475
!	-7.10521
▁w	-7.10961
▁got	-7.11205
▁back	-7.12051
mp	-7.1211
▁tell	-7.12409
ru	-7.12472
▁How	-7.12581
▁some	-7.1275
س	-7.14404
ب	-7.15014
la	-7.15486
id	-7.15685
▁Yanni	-7.15898
ul	-7.1619
▁doing	-7.16324
ment	-7.16624
▁or	-7.16678
z	-7.16788
ci	-7.17048
▁day	-7.17068
▁car	-7.1787
ive	-7.18074
ge	-7.18314
▁ho	-7.19008
▁their	-7.19627
▁P	-7.19766
▁O	-7.19824
▁There	-7.20101
▁home	-7.20302
ver	-7.20563
▁un	-7.20816
▁how	-7.2139
age	-7.21412
▁people	-7.21561
▁take	-7.22072
▁say	-7.22142
▁mo	-7.23254
▁That	-7.2391
▁much	-7.23964
▁Rima	-7.24217
ist	-7.24649
▁still	-7.25202
▁now	-7.2553
▁come	-7.25963
▁make	-7.2601
▁ba	-7.27631
▁pro	-7.2838
▁Boston	-7.28791
▁bo	-7.28885
▁Layla	-7.29117
▁fa	-7.29261
▁di	-7.29302
vi	-7.29412
0	-7.30451
▁any	-7.31133
▁sp	-7.3125
ight	-7.32043
ق	-7.32303
ies	-7.32326
co	-7.32589
▁into	-7.32998
▁wanted	-7.33149
▁F	-7.34252
▁E	-7.34865
▁Why	-7.35184
▁only	-7.35217
▁Algeria	-7.35583
▁live	-7.35626
▁My	-7.35661
▁D	-7.36126
▁long	-7.36441
▁them	-7.37018
is	-7.37387
▁over	-7.38568
▁off	-7.40132
pe	-7.40339
▁lo	-7.40442
▁won	-7.41465
ine	-7.42456
ity	-7.43844
▁way	-7.43878
▁other	-7.44089
▁something	-7.45004
ح	-7.45672
▁wasn	-7.45716
▁eat	-7.46064
ers	-7.46229
▁love	-7.46774
us	-7.47063
▁house	-7.47548
▁sa	-7.47796
▁G	-7.47932
▁lot	-7.48441
▁man	-7.48833
he	-7.48933
▁went	-7.49181
▁our	-7.49681
de	-7.50284
▁si	-7.50713
ف	-7.51323
▁last	-7.5146
▁new	-7.51784
▁right	-7.51874
▁French	-7.52583
▁knew	-7.53003
▁look	-7.53142
▁mi	-7.53195
▁speak	-7.53286
ho	-7.53497
▁always	-7.53772
▁play	-7.53934
▁la	-7.54648
ant	-7.54878
▁too	-7.55016
qu	-7.55184
oo	-7.55211
▁dis	-7.55325
▁anything	-7.556
▁today	-7.56795
im	-7.56828
▁talk	-7.56886
able	-7.56904
lu	-7.57418
ha	-7.57457
▁ro	-7.58892
sh	-7.59204
▁Australia	-7.59379
pp	-7.60055
ated	-7.60229
▁li	-7.60448
▁stay	-7.60459
▁made	-7.60578
op	-7.60586
▁ل	-7.60747
mo	-7.60784
▁gr	-7.60864
▁Don	-7.61243
▁o	-7.61259
▁many	-7.61482
▁plan	-7.61863
▁seem	-7.62167
▁Did	-7.62504
▁money	-7.6283
▁school	-7.62959
ure	-7.63124
▁asked	-7.63197
▁W	-7.63484
▁life	-7.63698
ow	-7.63722
▁r	-7.63727
ance	-7.64031
▁again	-7.64291
▁down	-7.64811
na	-7.64873
▁even	-7.65651
ian	-7.66028
▁three	-7.66033
▁أ	-7.66665
▁feel	-7.67254
▁book	-7.67548
▁before	-7.67804
▁If	-7.67876
ff	-7.67944
um	-7.6835
▁ha	-7.69471
"	-7.69561
ish	-7.6964
▁j	-7.6966
▁done	-7.70286
▁No	-7.71031
▁better	-7.71261
mi	-7.71268
▁da	-7.715
ence	-7.71549
▁win	-7.71601
▁sure	-7.71762
ous	-7.72071
side	-7.72134
▁why	-7.73154
▁where	-7.7333
▁find	-7.73645
▁left	-7.73771
▁Are	-7.73784
▁ي	-7.74656
▁well	-7.74771
."	-7.74996
ج	-7.7501
tic	-7.7502
▁give	-7.75336
▁ta	-7.75441
▁room	-7.75852
▁old	-7.76388
▁able	-7.76636
▁R	-7.76746
no	-7.77208
am	-7.77359
▁John	-7.77615
ick	-7.77782
▁Can	-7.78134
▁first	-7.78467
▁does	-7.78821
▁wait	-7.79078
▁week	-7.79388
▁hand	-7.79486
wa	-7.79793
▁buy	-7.79969
▁N	-7.79974
ud	-7.80323
ia	-7.81099
▁leave	-7.81293
hi	-7.8138
ca	-7.81992
▁might	-7.82038
ma	-7.82075
▁When	-7.8303
▁came	-7.83361
ac	-7.83982
▁hope	-7.84051
▁let	-7.84363
▁hi	-7.84802
▁night	-7.85201
▁ever	-7.86161
▁years	-7.8678
ally	-7.86814
▁put	-7.87157
▁used	-7.87528
ach	-7.87639
and	-7.8769
▁learn	-7.87948
▁little	-7.88439
ap	-7.88454
ّ	-7.8904
▁himself	-7.8905
ep	-7.89223
▁next	-7.89278
▁walk	-7.89578
▁cha	-7.89962
▁everything	-7.90007
ak	-7.90378
▁every	-7.90451
per	-7.90518
ag	-7.90635
▁two	-7.91101
▁read	-7.91215
▁saw	-7.91549
ful	-7.91569
ie	-7.91603
▁hard	-7.91748
▁away	-7.92208
▁found	-7.92645
▁took	-7.92803
▁after	-7.93218
▁Let	-7.93875
▁believe	-7.9396
cu	-7.9397
bi	-7.94021
▁says	-7.94203
▁things	-7.94258
▁tea	-7.9438
ab	-7.94632
▁wouldn	-7.94685
▁gu	-7.95376
▁ب	-7.95757
led	-7.95824
ph	-7.95971
▁hear	-7.96017
▁tomorrow	-7.96273
bo	-7.9652
’	-7.96827
▁ت	-7.96867
▁already	-7.97052
▁must	-7.97221
fi	-7.97655
▁K	-7.98975
▁couldn	-7.99123
▁wonder	-7.99197
iv	-7.99277
▁dog	-7.99532
▁pre	-7.99569
▁problem	-8.00944
less	-8.01168
▁late	-8.01208
▁person	-8.01498
▁happen	-8.0208
po	-8.02855
▁ask	-8.03848
▁star	-8.04213
ni	-8.04334
ard	-8.04624
ction	-8.05161
▁job	-8.05169
che	-8.05463
▁started	-8.0609
ig	-8.06207
j	-8.07224
▁own	-8.075
▁show	-8.07837
▁around	-8.08372
▁name	-8.08737
▁م	-8.08892
▁because	-8.08936
ط	-8.09626
for	-8.0966
▁language	-8.09687
▁understand	-8.09833
ugh	-8.09957
ec	-8.1004
ain	-8.1005
▁world	-8.10346
▁probably	-8.10764
▁meet	-8.10945
▁app	-8.1121
▁children	-8.11309
▁per	-8.11459
ber	-8.11527
ical	-8.12285
▁change	-8.1269
▁Skura	-8.12776
▁without	-8.12856
ack	-8.13173
▁call	-8.13598
port	-8.14232
ش	-8.14293
▁turn	-8.14616
▁water	-8.1475
▁heard	-8.14845
▁door	-8.15052
ise	-8.15063
▁fl	-8.15255
▁both	-8.15334
▁same	-8.1542
▁ga	-8.15571
▁tried	-8.15994
▁Have	-8.16219
▁year	-8.1625
▁place	-8.16277
▁friends	-8.16295
▁watch	-8.16718
ious	-8.16791
par	-8.1696
if	-8.17076
▁vi	-8.17187
▁gave	-8.17342
▁open	-8.1738
▁often	-8.17613
▁va	-8.17796
▁may	-8.17914
▁father	-8.18325
und	-8.18377
▁drink	-8.18442
▁en	-8.18462
▁yet	-8.18663
أ	-8.18745
ذ	-8.19028
ome	-8.19067
gg	-8.19142
▁thing	-8.19432
▁Where	-8.19981
▁soon	-8.20146
▁Who	-8.20866
▁sleep	-8.21039
▁care	-8.21432
man	-8.2148
▁happened	-8.21498
ص	-8.21818
▁use	-8.22023
▁most	-8.22083
row	-8.22189
▁comm	-8.22783
▁part	-8.23016
bu	-8.23207
gu	-8.23693
▁keep	-8.23748
▁enough	-8.23802
▁through	-8.23858
▁wish	-8.24045
▁happy	-8.24181
▁An	-8.24855
▁friend	-8.24921
land	-8.25362
▁which	-8.25498
▁looked	-8.26221
▁cat	-8.26666
cent	-8.2673
3	-8.26875
▁together	-8.27063
ما	-8.27202
ary	-8.27207
▁kind	-8.27266
ever	-8.27384
▁word	-8.27524
▁idea	-8.28042
▁Mar	-8.28257
Y	-8.28374
▁Please	-8.28477
▁best	-8.28607
V	-8.29391
gen	-8.29978
▁أن	-8.30194
▁Some	-8.30308
▁nothing	-8.30626
▁anymore	-8.30659
up	-8.30786
▁study	-8.30916
▁close	-8.31173
▁great	-8.31233
▁under	-8.31891
gra	-8.32014
▁question	-8.32064
▁ten	-8.3209
خ	-8.32293
▁morning	-8.32537
▁Mo	-8.32747
▁Mennad	-8.33027
▁end	-8.33053
2	-8.3338
▁Ma	-8.33711
▁mother	-8.34517
▁looking	-8.34568
▁bad	-8.34789
▁mean	-8.35241
ize	-8.35311
ition	-8.35468
▁yesterday	-8.35627
▁pass	-8.357
▁His	-8.35755
▁من	-8.36335
▁high	-8.36498
▁big	-8.36558
▁U	-8.36606
ub	-8.36723
1	-8.36786
▁Berber	-8.37089
▁1	-8.37534
▁fun	-8.37867
▁bought	-8.37894
;	-8.37972
▁party	-8.38066
▁في	-8.3814
▁teacher	-8.38313
one	-8.38377
▁wrong	-8.3862
ign	-8.38973
▁each	-8.3912
▁anyone	-8.39331
▁visit	-8.39837
▁while	-8.40028
▁war	-8.40162
:	-8.40308
▁few	-8.40688
▁girl	-8.40771
▁try	-8.41061
▁seen	-8.41547
▁alone	-8.41574
▁another	-8.41638
▁called	-8.41643
▁stop	-8.41692
▁expect	-8.41957
▁sing	-8.42971
▁else	-8.43054
I	-8.43184
▁young	-8.43547
▁enjoy	-8.44011
5	-8.44114
▁head	-8.44205
ال	-8.44211
▁English	-8.44285
lar	-8.44396
▁remember	-8.4444
ness	-8.44505
use	-8.44557
▁mind	-8.4466
▁those	-8.44717
qui	-8.45127
▁kill	-8.45341
▁food	-8.45978
8	-8.46283
ان	-8.46392
▁drive	-8.46715
▁far	-8.46776
▁parents	-8.47005
▁afraid	-8.47111
▁trying	-8.47166
▁family	-8.47182
ward	-8.47239
▁finish	-8.47377
▁until	-8.4759
▁ear	-8.47837
▁felt	-8.48147
▁class	-8.48555
ative	-8.48611
▁fo	-8.48953
▁Be	-8.49252
▁move	-8.49465
▁please	-8.49619
▁country	-8.49819
▁getting	-8.49866
▁herself	-8.50018
▁lost	-8.50204
▁Ha	-8.5082
▁month	-8.51364
▁pretty	-8.51671
▁phone	-8.51858
▁bit	-8.52178
J	-8.52196
ض	-8.52788
▁run	-8.53474
▁rain	-8.53515
▁الم	-8.53765
▁someone	-8.53907
▁answer	-8.54183
▁talking	-8.54399
▁supposed	-8.55117
▁such	-8.55768
4	-8.55771
▁fire	-8.55992
6	-8.56099
▁pain	-8.56399
ز	-8.56565
time	-8.56675
▁kid	-8.57403
▁beautiful	-8.57522
غ	-8.57719
▁pay	-8.57905
▁decided	-8.58608
▁20	-8.58808
ري	-8.59053
▁light	-8.59381
▁everyone	-8.59395
▁coming	-8.59533
▁planning	-8.60249
▁trans	-8.60531
▁ti	-8.60626
▁face	-8.60775
▁ran	-8.61053
▁swim	-8.61875
▁Li	-8.61993
▁having	-8.62085
▁imp	-8.62509
H	-8.62584
▁surprise	-8.63113
▁train	-8.63572
▁police	-8.63718
▁brother	-8.64009
▁act	-8.64082
▁married	-8.64177
9	-8.64511
▁sea	-8.64698
إ	-8.64999
▁ready	-8.6523
▁almost	-8.65274
▁whether	-8.65401
S	-8.65422
▁Lo	-8.65582
press	-8.65595
▁early	-8.6565
▁student	-8.65764
▁busy	-8.66099
▁difficult	-8.66856
▁since	-8.66969
▁tree	-8.6776
▁different	-8.68332
▁promise	-8.68339
▁du	-8.68438
▁bus	-8.6856
لي	-8.68593
▁Monday	-8.69167
7	-8.69255
نا	-8.69318
▁small	-8.69499
▁become	-8.69834
▁myself	-8.69853
▁guy	-8.70045
▁living	-8.70125
▁office	-8.70364
▁Th	-8.70508
▁cold	-8.70696
▁Does	-8.71034
▁also	-8.71588
▁Le	-8.72297
▁reason	-8.72945
▁agree	-8.73033
▁Ja	-8.74172
▁quite	-8.74353
▁mistake	-8.74512
▁free	-8.74623
▁truth	-8.74885
▁listen	-8.75096
▁stand	-8.75271
ث	-8.75658
▁important	-8.75752
▁picture	-8.75823
▁miss	-8.76127
▁near	-8.76255
▁chance	-8.76261
▁tired	-8.76289
▁yourself	-8.76367
▁broke	-8.76487
▁child	-8.76505
▁minute	-8.76556
▁ago	-8.76837
▁park	-8.77671
▁mu	-8.78508
▁Will	-8.78585
▁eng	-8.78681
▁woman	-8.78863
▁Ju	-8.78942
line	-8.79308
▁movie	-8.79753
▁wife	-8.79889
▁window	-8.7989
▁cook	-8.79926
▁Would	-8.80158
room	-8.80189
▁matter	-8.80585
▁arrive	-8.80678
▁sound	-8.80737
▁city	-8.80875
▁ski	-8.80877
▁write	-8.80967
▁dress	-8.81423
▁music	-8.81851
؟	-8.83157
▁nice	-8.8335
▁large	-8.83672
▁scar	-8.83995
▁sentence	-8.84716
▁hurt	-8.84898
▁America	-8.84948
▁clean	-8.8506
▁follow	-8.85155
▁letter	-8.85487
L	-8.85587
▁true	-8.85625
▁fast	-8.8603
▁hair	-8.86259
▁coffee	-8.86326
ين	-8.8641
▁between	-8.86825
▁doctor	-8.86879
ship	-8.86964
▁number	-8.88256
▁sister	-8.88445
▁order	-8.88726
▁كان	-8.8882
▁themselves	-8.88872
▁game	-8.8924
▁table	-8.89875
▁spend	-8.90047
▁easy	-8.90421
▁usually	-8.9077
M	-8.90943
▁against	-8.9104
▁fell	-8.91333
T	-8.91475
▁four	-8.92027
A	-8.92056
▁behind	-8.92094
▁count	-8.92363
▁hate	-8.92417
▁became	-8.92426
▁La	-8.93163
▁complete	-8.9318
▁dinner	-8.93912
ى	-8.94109
▁grow	-8.9414
▁laugh	-8.94293
▁kiss	-8.94763
▁full	-8.94988
▁making	-8.9535
▁forgot	-8.96169
▁exam	-8.96439
▁forget	-8.9712
▁realize	-8.97157
▁سامي	-8.97272
▁clear	-8.97432
▁trouble	-8.9777
▁dream	-8.98981
▁human	-8.9901
▁safe	-9.00506
▁glad	-9.00926
▁story	-9.01261
▁travel	-9.01356
▁health	-9.01415
▁tonight	-9.01571
▁return	-9.01906
▁front	-9.03014
▁consider	-9.03015
▁gl	-9.03395
▁Could	-9.03571
▁accident	-9.03602
ible	-9.04336
▁sorry	-9.04548
ja	-9.04863
▁Tell	-9.05159
▁Mi	-9.05268
▁summer	-9.05392
▁careful	-9.05447
▁cannot	-9.05482
▁short	-9.05553
▁company	-9.05996
▁German	-9.05996
▁trust	-9.06315
▁God	-9.06501
▁sign	-9.06614
▁point	-9.07448
▁afternoon	-9.07602
ء	-9.07992
▁business	-9.08057
▁anybody	-9.08122
▁key	-9.08402
ئ	-9.08513
▁Everyone	-9.08677
َ	-9.08742
▁strong	-9.09269
▁computer	-9.09995
▁taking	-9.10271
▁street	-9.10295
▁lunch	-9.10527
▁angry	-9.10642
▁daughter	-9.10761
▁Me	-9.11173
▁Islam	-9.11302
▁serious	-9.11704
▁kept	-9.12891
▁glass	-9.13101
▁black	-9.13165
▁bring	-9.13313
▁hospital	-9.13712
▁notice	-9.13781
▁certain	-9.14057
▁possible	-9.14195
▁19	-9.1472
▁dark	-9.14861
▁began	-9.14906
▁store	-9.15169
▁check	-9.16336
▁past	-9.16376
▁Maybe	-9.16541
▁explain	-9.16541
▁snow	-9.1754
▁exactly	-9.17788
▁actually	-9.17824
▁break	-9.1833
▁Algiers	-9.18363
▁spoke	-9.19128
▁present	-9.19288
،	-9.19342
▁quickly	-9.19342
▁born	-9.19499
▁Ho	-9.19531
▁brought	-9.19597
▁second	-9.19744
▁strange	-9.20148
▁rich	-9.20695
▁power	-9.21198
▁restaurant	-9.21514
▁doubt	-9.21516
▁during	-9.222
▁wall	-9.22306
▁fact	-9.23384
K	-9.23825
ً	-9.24154
▁على	-9.24231
▁half	-9.24463
▁baby	-9.24743
▁along	-9.25015
▁sitting	-9.25042
▁allowed	-9.25355
▁favorite	-9.2585
▁flower	-9.2636
▁camp	-9.26379
▁Many	-9.26447
▁wood	-9.26597
N	-9.26937
▁experience	-9.26984
▁secret	-9.27103
/	-9.27536
▁animal	-9.27737
▁stopped	-9.28059
▁thirty	-9.28131
▁clothes	-9.2833
elect	-9.28684
▁least	-9.29212
▁cause	-9.29221
▁women	-9.29777
▁rather	-9.29856
▁situation	-9.29896
▁suggest	-9.30628
▁Thank	-9.3071
▁convince	-9.31118
▁fix	-9.31251
▁begin	-9.31361
—	-9.31652
▁People	-9.31693
▁hold	-9.3176
▁body	-9.32238
▁continue	-9.32438
▁paid	-9.32696
▁suspect	-9.32937
▁garden	-9.32979
D	-9.32986
▁Nobody	-9.33104
▁weather	-9.33481
▁several	-9.33989
▁video	-9.34537
▁Japanese	-9.35561
▁2:30	-9.35902
▁caught	-9.35988
▁إلى	-9.36289
▁figure	-9.37157
▁After	-9.3725
▁finally	-9.37856
▁wrote	-9.38384
▁shoes	-9.38837
▁neighbor	-9.39001
▁stupid	-9.39001
▁Muslim	-9.39267
▁worried	-9.39579
▁future	-9.40701
▁Fadil	-9.40792
▁treat	-9.40924
▁support	-9.41063
▁floor	-9.41256
▁across	-9.41424
▁voice	-9.41606
▁white	-9.41607
O	-9.41635
▁decision	-9.41697
▁Mr	-9.41986
▁appear	-9.42298
▁everybody	-9.42429
▁perfect	-9.42429
ُ	-9.4252
▁sense	-9.42696
▁direct	-9.4293
▁Japan	-9.43117
▁accept	-9.43165
W	-9.4618
ظ	-9.5639
Q	-9.60757
C	-9.61098
“	-9.62536
”	-9.62761
ِ	-9.66135
Z	-9.82666
B	-9.84253
)	-9.86157
(	-9.87013
P	-9.9032
E	-9.99296
آ	-10.0099
R	-10.2208
F	-10.2917
$	-10.3171
é	-10.3375
%	-10.4
ْ	-10.4824
G	-10.5533
–	-10.6303
ؤ	-10.715
q	-10.8066
U	-10.882
X	-10.9616
ٍ	-11.7198
á	-11.9961
ٌ	-12.0022
‘	-12.1106
í	-12.1448
ü	-12.5313
+	-12.5625
°	-12.6058
ã	-12.6983
&	-12.7354
è	-12.748
ā	-12.7738
ی	-12.7738
ó	-12.8555
ö	-12.9601
ï	-13.0593
ç	-13.1695
[	-13.2504
]	-13.2504
à	-13.3156
ō	-13.3156
ñ	-13.3616
ä	-13.3616
*	-13.4098
€	-13.4348
ـ	-13.4348
#	-13.5416
ı	-13.6299
=	-13.6934
_	-13.6934
ə	-13.7612
â	-13.7969
­	-13.8339
ú	-13.8724
ë	-13.9541
؛	-13.9541
١	-13.9541
٩	-13.9975
@	-14.043
‬	-14.0906
ê	-14.1406
>	-14.1932
ô	-14.1932
ł	-14.1932
о	-14.2488
î	-14.2488
É	-14.3076
ß	-14.3701
ک	-14.3701
ṛ	-14.3701
č	-14.4368
ī	-14.5082
ū	-14.5082
а	-14.5082
ş	-14.5851
š	-14.5851
‮	-14.5851
л	-14.6685
ŭ	-14.6685
ǎ	-14.6685
»	-14.6685
т	-14.6685
٠	-14.6685
с	-14.7594
å	-14.7594
π	-14.8594
ḍ	-14.8594
٥	-14.9705
<	-14.9705
ń	-14.9705
р	-15.0955
я	-15.0955
ɣ	-15.0955
٣	-15.0955
٦	-15.0955
′	-15.0955
æ	-15.0955
‐	-15.0955
ø	-15.2384
ĝ	-15.2384
ẓ	-15.2384
か	-15.405
н	-15.405
の	-15.405
ま	-15.405
×	-15.405
٤	-15.405
٨	-15.405
ٰ	-15.405
ì	-15.405
û	-15.405
۰	-15.405
ò	-15.405
е	-15.605
ṭ	-15.605
Ú	-15.605
ę	-15.605
^	-15.605
ź	-15.605
ĉ	-15.605
‍	-15.605
ē	-15.605
ș	-15.605
б	-15.855
、	-15.855
ν	-15.855
ṣ	-15.855
θ	-15.855
κ	-15.855
ʼ	-15.855
·	-15.855
ĵ	-15.855
ŝ	-15.855
ż	-15.855
→	-15.855
ć	-15.855
ě	-15.855
٧	-15.855
す	-15.855
‒	-15.855
た	-15.855
з	-15.855
в	-16.1884
`	-16.1884
ǧ	-16.1884
ɛ	-16.1884
ʽ	-16.1884
ь	-16.1884
ל	-16.1884
ע	-16.1884
پ	-16.1884
۔	-16.1884
۹	-16.1884
―	-16.1884
□	-16.1884
й	-16.1884
ۆ	-16.1884
ٓ	-16.1884
እ	-16.1884
₤	-16.1884
п	-16.6883
🤧	-16.6883
±	-16.6883
Я	-16.6883
Ö	-16.6884
ׁ	-16.6884
あ	-16.6884
}	-16.6884
~	-16.6884
À	-16.6884
ð	-16.6884
ù	-16.6884
ĥ	-16.6884
ő	-16.6884
ŕ	-16.6884
Σ	-16.6884
α	-16.6884
ε	-16.6884
τ	-16.6884
у	-16.6884
ч	-16.6884
ы	-16.6884
ё	-16.6884
ַ	-16.6884
ה	-16.6884
٪	-16.6884
ڵ	-16.6884
ṅ	-16.6884
‽	-16.6884
☭	-16.6884
♗	-16.6884
➜	-16.6884
所	-16.6884
ř	-16.6884
Ω	-16.6884
ێ	-16.6884
₪	-16.6884
ś	-16.6884
ש	-16.6884
ڨ	-16.6884
и	-16.6884
м	-16.6884
」	-16.6884
「	-16.6884
言	-17.6838
何	-17.6839
を	-17.684
る	-17.6841
み	-17.6842
て	-17.6843
っ	-17.6844
い	-17.6845
گ	-17.6846
מ	-17.6847
א	-17.6848
ю	-17.6849
д	-17.685
М	-17.6851
ρ	-17.6852
̱	-17.6853
Ō	-17.6854
Ł	-17.6855
İ	-17.6856
đ	-17.6857
ă	-17.6858
Í	-17.6859
Å	-17.686
{	-17.6861
₹	-17.6862
‫	-17.6863
к	-17.6864
Ţ	-17.6865
œ	-17.6866
♘	-17.6867
¡	-17.6868
😂	-17.6869
√	-17.687
چ	-17.6871
Ø	-17.6872
ž	-17.6873
ğ	-17.6874
Ü	-17.6875
Á	-17.6876
¥	-17.6877
٢	-17.6878
«	-17.6879
−	-17.688
£	-17.6881
⁄	-17.6882
分	-17.6883
ٱ	-17.6883
ἀ	-17.6883
り	-17.6883
ά	-17.6883
ι	-17.6883
🤒	-17.6883
ǃ	-17.6883
۱	-17.6883
Ç	-17.6883
ư	-17.6883
Н	-17.6883
般	-17.6883
Ż	-17.6884
|	-17.6884
¢	-17.6884
Æ	-17.6884
Î	-17.6884
Ñ	-17.6884
Ó	-17.6884
Þ	-17.6884
õ	-17.6884
ý	-17.6884
Ĉ	-17.6884
Č	-17.6884
ď	-17.6884
ĺ	-17.6884
ľ	-17.6884
ņ	-17.6884
ň	-17.6884
ŏ	-17.6884
ť	-17.6884
Ɛ	-17.6884
Ɣ	-17.6884
ơ	-17.6884
ǔ	-17.6884
ǭ	-17.6884
ʈ	-17.6884
ʻ	-17.6884
Β	-17.6884
Δ	-17.6884
β	-17.6884
γ	-17.6884
ζ	-17.6884
μ	-17.6884
ξ	-17.6884
ο	-17.6884
ς	-17.6884
ό	-17.6884
Ч	-17.6884
г	-17.6884
ї	-17.6884
ѝ	-17.6884
ׂ	-17.6884
ח	-17.6884
י	-17.6884
ן	-17.6884
ץ	-17.6884
ڕ	-17.6884
ژ	-17.6884
ھ	-17.6884
ी	-17.6884
ል	-17.6884
መ	-17.6884
ሳ	-17.6884
ብ	-17.6884
ት	-17.6884
ካ	-17.6884
ዓ	-17.6884
ዬ	-17.6884
ጽ	-17.6884
።	-17.6884
ṇ	-17.6884
Ṛ	-17.6884
Ṭ	-17.6884
ấ	-17.6884
ầ	-17.6884
ẩ	-17.6884
ắ	-17.6884
ẽ	-17.6884
ề	-17.6884
ồ	-17.6884
ứ	-17.6884
ữ	-17.6884
ự	-17.6884
ᾰ	-17.6884
₣	-17.6884
₰	-17.6884
⊂	-17.6884
☉	-17.6884
⨯	-17.6884
ⵥ	-17.6884
々	-17.6884
き	-17.6884
こ	-17.6884
し	-17.6884
せ	-17.6884
と	-17.6884
む	-17.6884
ら	-17.6884
ろ	-17.6884
ん	-17.6884
ウ	-17.6884
エ	-17.6884
ス	-17.6884
ド	-17.6884
ム	-17.6884
レ	-17.6884
・	-17.6884
三	-17.6884
不	-17.6884
么	-17.6884
亡	-17.6884
什	-17.6884
便	-17.6884
傳	-17.6884
典	-17.6884
國	-17.6884
够	-17.6884
夢	-17.6884
樓	-17.6884
水	-17.6884
海	-17.6884
港	-17.6884
滸	-17.6884
演	-17.6884
甚	-17.6884
紅	-17.6884
義	-17.6884
若	-17.6884
西	-17.6884
記	-17.6884
詞	-17.6884
遊	-17.6884
音	-17.6884
香	-17.6884
鳥	-17.6884
鸭	-17.6884
麼	-17.6884
신	-17.6884
허	-17.6884
～	-17.6884
🌡	-17.6884
🏼	-17.6884
😊	-17.6884
😷	-17.6884
🙂	-17.6884
🤮	-17.6884
🦠	-17.6884
ǐ	-17.6884
Ṣ	-17.6884
ạ	-17.6884
₩	-17.6884
₫	-17.6884
₳	-17.6884
₴	-17.6884
₵	-17.6884
明	-17.6884
焼	-17.6884
ˈ	-17.6884
̍	-17.6884
э	-17.6884
є	-17.6884
פ	-17.6884
۲	-17.6884
न	-17.6884
प	-17.6884
ल	-17.6884
ा	-17.6884
े	-17.6884
ሕ	-17.6884
ም	-17.6884
ሽ	-17.6884
አ	-17.6884
ግ	-17.6884
ἄ	-17.6884
ト	-17.6884
ー	-17.6884
務	-17.6884
問	-17.6884
政	-17.6884
粵	-17.6884
語	-17.6884
顧	-17.6884
ḥ	-17.6884
ザ	-17.6884
念	-17.6884
